015f
fe55
010e
fefa
fec7
004a
fe62
018b
0082
00e5
fe11
0061
003a
fea3
fe9d
00c8
0066
ff46
00c5
0038
ff8e
01b3
015e
ff6e
fe2d
ff38
ff98
00d2
01fb
ff6c
010d
005f
00c4
ffcd
0000
0000
0000
0000
0000
0000
0000
0000
0000
0000
